TRT-100800-EntropyCalibration2
images: 3b66eddc
/model.0/conv/Conv_output_0: 3e874159
/model.0/act/Sigmoid_output_0: 3c010a14
/model.0/act/Mul_output_0: 3e2518d5
/model.1/conv/Conv_output_0: 3f2a1fbf
/model.1/act/Sigmoid_output_0: 3c010a14
/model.1/act/Mul_output_0: 3e8f683d
/model.2/cv1/conv/Conv_output_0: 3ef908d5
/model.2/cv1/act/Sigmoid_output_0: 3c010a14
/model.2/cv1/act/Mul_output_0: 3dbf63e3
/model.22/m.0/cv1/conv/Conv_output_0: 3cff3f2e
/model.23/dfl/Softmax_output_0: 3bbb3786
/model.23/Reshape_1_output_0: 3dd8db59
/model.23/dfl/Softmax_output: 3bbb3786
/model.23/dfl/conv/Conv_output_0: 3dbacfe3
/model.23/Unsqueeze_10_output_0: 3eb37204
/model.2/Split_output_0: 3dc8e493
/model.23/dfl/Transpose_output_0: 3df464e1
/model.23/Expand_5_output_0: 3eb37204
/model.23/cv3.2/cv3.2.0/cv3.2.0.0/act/Mul_output_0: 3d0fba6b
/model.2/Split_output_1: 3d6c6588
/model.2/m.0/cv1/conv/Conv_output_0: 3da490bc
/model.2/m.0/cv1/act/Sigmoid_output_0: 3c010a13
/model.2/m.0/cv1/act/Mul_output_0: 3d17de6f
/model.2/m.0/cv2/conv/Conv_output_0: 3e0cfbab
/model.2/m.0/cv2/act/Sigmoid_output_0: 3c010a14
/model.2/m.0/cv2/act/Mul_output_0: 3dbfa90f
/model.2/m.0/Add_output_0: 3e0e3473
/model.2/Concat_output_0: 3dc8e493
/model.2/cv2/conv/Conv_output_0: 3e3e3137
/model.2/cv2/act/Sigmoid_output_0: 3c010a14
/model.2/cv2/act/Mul_output_0: 3d3d62ce
/model.3/conv/Conv_output_0: 3d90a036
/model.3/act/Sigmoid_output_0: 3c091dd0
/model.3/act/Mul_output_0: 3cfe2419
/model.4/cv1/conv/Conv_output_0: 3d7db270
/model.4/cv1/act/Sigmoid_output_0: 3c00a8de
/model.4/cv1/act/Mul_output_0: 3cffdb51
/model.23/cv3.1/cv3.1.1/cv3.1.1.0/conv/Conv_output_0: 3d590129
ONNXTRT_Broadcast_236_output: 3b810a14
/model.22/m.0/cv1/act/Sigmoid_output_0: 3bfad38e
/model.23/cv3.1/cv3.1.0/cv3.1.0.1/act/Mul_output_0: 3d104209
/model.23/Expand_1_output_0: 3fb4f522
/model.22/m.0/m/m.0/Add_output_0: 3d903474
/model.4/Split_output_0: 3d020b59
/model.23/Constant_67_output_0_output: 3c810a14
/model.23/Unsqueeze_4_output_0: 3fb4f522
/model.23/Unsqueeze_7_output_0: 3f347418
/model.4/Split_output_1: 3cb0f401
/model.4/m.0/cv1/conv/Conv_output_0: 3cd1b51b
/model.4/m.0/cv1/act/Sigmoid_output_0: 3bf6c1a3
/model.4/m.0/cv1/act/Mul_output_0: 3ca5e72c
/model.4/m.0/cv2/conv/Conv_output_0: 3d2557f3
/model.4/m.0/cv2/act/Sigmoid_output_0: 3c0007fd
/model.4/m.0/cv2/act/Mul_output_0: 3d23fa9d
/model.4/m.0/Add_output_0: 3d175757
/model.4/Concat_output_0: 3d0e08ec
/model.4/cv2/conv/Conv_output_0: 3d608ebd
/model.4/cv2/act/Sigmoid_output_0: 3c06c59f
/model.4/cv2/act/Mul_output_0: 3ca72d37
/model.5/conv/Conv_output_0: 3d3f318e
/model.5/act/Sigmoid_output_0: 3c020c5f
/model.5/act/Mul_output_0: 3c911fa9
/model.6/cv1/conv/Conv_output_0: 3d5f5b83
/model.6/cv1/act/Sigmoid_output_0: 3c010563
/model.6/cv1/act/Mul_output_0: 3ce930aa
/model.22/Split_output_1: 3c9b28f2
/model.21/Concat_output_0: 3c728568
/model.23/Expand_4_output_0: 3eb37204
/model.22/cv1/conv/Conv_output_0: 3d8a599a
/model.22/m.0/m/m.0/cv2/act/Mul_output_0: 3cb12c99
/model.22/m.0/m/m.1/cv2/conv/Conv_output_0: 3df349f6
/model.6/Split_output_0: 3ce930aa
/model.22/m.0/cv2/conv/Conv_output_0: 3d643216
/model.23/cv3.1/cv3.1.1/cv3.1.1.0/act/Sigmoid_output_0: 3c0057f0
/model.23/cv3.2/cv3.2.1/cv3.2.1.0/act/Sigmoid_output_0: 3c03bf3b
/model.6/Split_output_1: 3ca5b05e
/model.6/m.0/cv1/conv/Conv_output_0: 3cd3e63a
/model.6/m.0/cv2/conv/Conv_output_0: 3d44ec33
/model.6/m.0/cv1/act/Sigmoid_output_0: 3bfb5e28
/model.6/m.0/cv2/act/Sigmoid_output_0: 3bfef4cf
/model.6/m.0/cv1/act/Mul_output_0: 3c98cafb
/model.6/m.0/cv2/act/Mul_output_0: 3cb13496
/model.6/m.0/m/m.0/cv1/conv/Conv_output_0: 3d32d4df
/model.6/m.0/m/m.0/cv1/act/Sigmoid_output_0: 3bfa3fef
/model.6/m.0/m/m.0/cv1/act/Mul_output_0: 3c9014d0
/model.6/m.0/m/m.0/cv2/conv/Conv_output_0: 3d152b55
/model.6/m.0/m/m.0/cv2/act/Sigmoid_output_0: 3bfff0da
/model.6/m.0/m/m.0/cv2/act/Mul_output_0: 3c992502
/model.6/m.0/m/m.0/Add_output_0: 3d191d5d
/model.6/m.0/m/m.1/cv1/conv/Conv_output_0: 3d2eca76
/model.6/m.0/m/m.1/cv1/act/Sigmoid_output_0: 3bfeb184
/model.6/m.0/m/m.1/cv1/act/Mul_output_0: 3c51aec2
/model.6/m.0/m/m.1/cv2/conv/Conv_output_0: 3d5af082
/model.6/m.0/m/m.1/cv2/act/Sigmoid_output_0: 3c00f870
/model.6/m.0/m/m.1/cv2/act/Mul_output_0: 3d25b666
/model.6/m.0/m/m.1/Add_output_0: 3d92d004
/model.6/m.0/Concat_output_0: 3d261ba1
/model.6/m.0/cv3/conv/Conv_output_0: 3d869d25
/model.6/m.0/cv3/act/Sigmoid_output_0: 3c009f5a
/model.6/m.0/cv3/act/Mul_output_0: 3cbf9129
/model.6/Concat_output_0: 3cbf9129
/model.6/cv2/conv/Conv_output_0: 3d57e468
/model.6/cv2/act/Sigmoid_output_0: 3c002052
/model.6/cv2/act/Mul_output_0: 3c9a01e0
/model.7/conv/Conv_output_0: 3d6fd9f9
/model.7/act/Sigmoid_output_0: 3c003bcf
/model.7/act/Mul_output_0: 3cb1a228
/model.8/cv1/conv/Conv_output_0: 3d72b585
/model.8/cv1/act/Sigmoid_output_0: 3c00d11a
/model.8/cv1/act/Mul_output_0: 3d01f98b
/model.22/m.0/cv3/act/Sigmoid_output_0: 3c01095b
/model.23/cv3.1/cv3.1.1/cv3.1.1.1/act/Mul_output_0: 3dc411fe
/model.23/Concat_23_output_0: 3e810a14
/model.23/Add_8_output_0: 3e810a14
/model.23/dfl/Reshape_output_0: 3df464e1
ONNXTRT_Broadcast_319_output: 3e810a14
/model.8/Split_output_0: 3d01f98b
/model.23/Squeeze_2_output_0_output: 3e810a14
/model.23/Reshape_15_output_0: 3eb37204
/model.23/Squeeze_1_output_0_output: 3e010a14
/model.8/Split_output_1: 3cb23a1a
/model.8/m.0/cv1/conv/Conv_output_0: 3d15c3a7
/model.8/m.0/cv2/conv/Conv_output_0: 3d137ae1
/model.8/m.0/cv1/act/Sigmoid_output_0: 3bfc017c
/model.8/m.0/cv2/act/Sigmoid_output_0: 3c00ca22
/model.8/m.0/cv1/act/Mul_output_0: 3ce66f64
/model.8/m.0/cv2/act/Mul_output_0: 3ca4d08e
/model.8/m.0/m/m.0/cv1/conv/Conv_output_0: 3d5e6e75
/model.8/m.0/m/m.0/cv1/act/Sigmoid_output_0: 3c00d397
/model.8/m.0/m/m.0/cv1/act/Mul_output_0: 3c73eb26
/model.8/m.0/m/m.0/cv2/conv/Conv_output_0: 3d53669a
/model.8/m.0/m/m.0/cv2/act/Sigmoid_output_0: 3c0044fc
/model.8/m.0/m/m.0/cv2/act/Mul_output_0: 3cd2781e
/model.8/m.0/m/m.0/Add_output_0: 3d3f11d9
/model.8/m.0/m/m.1/cv1/conv/Conv_output_0: 3d481daf
/model.8/m.0/m/m.1/cv1/act/Sigmoid_output_0: 3bfeaf6f
/model.8/m.0/m/m.1/cv1/act/Mul_output_0: 3c7e80be
/model.8/m.0/m/m.1/cv2/conv/Conv_output_0: 3d899098
/model.8/m.0/m/m.1/cv2/act/Sigmoid_output_0: 3c00e0bc
/model.8/m.0/m/m.1/cv2/act/Mul_output_0: 3d24d1d0
/model.8/m.0/m/m.1/Add_output_0: 3d8e743f
/model.8/m.0/Concat_output_0: 3d40032a
/model.8/m.0/cv3/conv/Conv_output_0: 3d2fe0ae
/model.8/m.0/cv3/act/Sigmoid_output_0: 3c000844
/model.8/m.0/cv3/act/Mul_output_0: 3cb255b8
/model.8/Concat_output_0: 3d01f98b
/model.8/cv2/conv/Conv_output_0: 3d7e0e5d
/model.8/cv2/act/Sigmoid_output_0: 3c00e2f5
/model.8/cv2/act/Mul_output_0: 3d138425
/model.9/cv1/conv/Conv_output_0: 3d80557e
/model.9/cv1/act/Sigmoid_output_0: 3c00ac83
/model.9/cv1/act/Mul_output_0: 3d69bdd9
/model.9/m/MaxPool_output_0: 3d69bdd9
/model.9/m_1/MaxPool_output_0: 3d69bdd9
/model.9/m_2/MaxPool_output_0: 3d69bdd9
/model.9/Concat_output_0: 3d61d701
/model.9/cv2/conv/Conv_output_0: 3d870a86
/model.9/cv2/act/Sigmoid_output_0: 3c004bbb
/model.9/cv2/act/Mul_output_0: 3c9aa1ba
/model.10/cv1/conv/Conv_output_0: 3e00bc19
/model.10/cv1/act/Sigmoid_output_0: 3c01f843
/model.10/cv1/act/Mul_output_0: 3d1198b9
/model.23/cv2.1/cv2.1.1/conv/Conv_output_0: 3e31f012
/model.22/m.0/cv2/act/Mul_output_0: 3d0fa354
/model.23/Concat_24_output_0: 3fb4df34
/model.23/ConstantOfShape_2_output_0: 0
/model.23/Reshape_7_output_0: 3fb4f522
ONNXTRT_ShapeShuffle_314_output: 0
/model.10/Split_output_0: 3d1198b9
ONNXTRT_Broadcast_419_output: 3c810a14
(Unnamed Layer* 628) [Constant]_output: 0
ONNXTRT_Broadcast_244_output: 3e010a14
/model.10/Split_output_1: 3d1158af
ONNXTRT_Broadcast_311_output: 3b810a14
/model.23/Reshape_14_output_0: 3eb37204
/model.10/m/m.0/attn/qkv/conv/Conv_output_0: 3d3faf6d
/model.23/Reshape_13_output_0: 3eb37204
/model.23/Sigmoid_output_0: 37206326
/model.22/m.0/m/m.0/cv1/conv/Conv_output_0: 3d6b2256
ONNXTRT_ShapeShuffle_307_output: 3c010a14
/model.23/Reshape_8_output_0: 3f347418
/model.22/m.0/m/m.0/cv2/act/Sigmoid_output_0: 3c00d668
/model.23/Add_5_output_0: 3e010a14
/model.22/cv1/act/Sigmoid_output_0: 3c010966
/model.23/cv3.1/cv3.1.1/cv3.1.1.1/act/Sigmoid_output_0: 3c010a14
/model.23/Unsqueeze_9_output_0: 3eb37204
/model.23/Range_5_output_0: 3eb16ddc
ONNXTRT_Broadcast_426_output: 3e810a14
/model.23/Split_1_output_1: 3df3150e
ONNXTRT_ShapeShuffle_239_output: 0
/model.22/m.0/cv1/act/Mul_output_0: 3c51747a
/model.22/m.0/m/m.1/cv1/act/Mul_output_0: 3c2453df
/model.23/Reshape_17_output_0: 3eb37204
/model.10/m/m.0/attn/Reshape_output_0: 3d3faf6d
/model.23/Transpose_1_output_0: 3e810a14
/model.23/Unsqueeze_3_output_0: 3fb4f522
ONNXTRT_ShapeShuffle_297_output: 3c010a14
/model.23/Range_4_output_0: 3eb16ddc
/model.22/m.0/cv2/act/Sigmoid_output_0: 3c00d863
/model.22/m.0/m/m.0/cv1/act/Sigmoid_output_0: 3c00c44c
/model.10/m/m.0/attn/Split_output_0: 3d19feea
/model.22/m.0/m/m.1/cv1/conv/Conv_output_0: 3d57379d
/model.23/cv3.1/cv3.1.1/cv3.1.1.1/conv/Conv_output_0: 3e558239
/model.23/Add_10_output_0: 3fb5f978
/model.10/m/m.0/attn/Split_output_1: 3d4bc624
/model.23/Add_11_output_0: 4034df34
/model.23/cv3.1/cv3.1.2/Conv_output_0: 3dd1d37d
/model.22/m.0/m/m.0/cv1/act/Mul_output_0: 3c9ab434
/model.10/m/m.0/attn/Split_output_2: 3d32761c
/model.10/m/m.0/attn/Transpose_output_0: 3d19feea
/model.10/m/m.0/attn/Reshape_2_output_0: 3d32761c
/model.10/m/m.0/attn/MatMul_output_0: 3f2f7a46
/model.10/m/m.0/attn/pe/conv/Conv_output_0: 3d0e8e67
/model.10/m/m.0/attn/Constant_6_output_0_output: 3ab67d3d
ONNXTRT_Broadcast_output: 3ab67d3d
/model.10/m/m.0/attn/Mul_1_output_0: 3df829ae
/model.10/m/m.0/attn/Softmax_output: 3977296e
/model.10/m/m.0/attn/Softmax_output_0: 3977296e
/model.22/Split_output_0: 3ca48a0f
/model.23/Div_1_output_0: 3fb4df34
/model.10/m/m.0/attn/Transpose_1_output_0: 3977296e
/model.10/m/m.0/attn/MatMul_1_output_0: 3d069e1f
/model.10/m/m.0/attn/Reshape_1_output_0: 3d069e1f
/model.10/m/m.0/attn/Add_output_0: 3d104d84
/model.10/m/m.0/attn/proj/conv/Conv_output_0: 3d219797
/model.10/m/m.0/Add_output_0: 3d6b5e88
/model.10/m/m.0/ffn/ffn.0/conv/Conv_output_0: 3d9a456e
/model.10/m/m.0/ffn/ffn.0/act/Sigmoid_output_0: 3bfe4da9
/model.10/m/m.0/ffn/ffn.0/act/Mul_output_0: 3c9b7bce
/model.10/m/m.0/ffn/ffn.1/conv/Conv_output_0: 3d14195b
/model.10/m/m.0/Add_1_output_0: 3d5768f6
/model.10/Concat_output_0: 3d272079
/model.10/cv2/conv/Conv_output_0: 3d502cbc
/model.10/cv2/act/Sigmoid_output_0: 3bfef237
/model.10/cv2/act/Mul_output_0: 3c48a997
/model.11/Resize_output_0: 3c48a997
/model.12/Concat_output_0: 3c9a01e0
/model.13/cv1/conv/Conv_output_0: 3d5ee799
/model.13/cv1/act/Sigmoid_output_0: 3c001399
/model.13/cv1/act/Mul_output_0: 3c9a4528
/model.23/Transpose_output_0: 3fb4f522
/model.23/Concat_22_output_0: 3fb4f522
/model.22/m.0/m/m.1/cv1/act/Sigmoid_output_0: 3c07e45d
/model.23/Reshape_11_output_0: 3f347418
(Unnamed Layer* 506) [Constant]_output: 0
/model.23/Reshape_16_output_0: 3eb37204
/model.13/Split_output_0: 3cb19f62
/model.22/m.0/m/m.0/cv2/conv/Conv_output_0: 3d8d74be
/model.23/dfl/Reshape_1_output_0: 3dbacfe3
/model.23/Concat_6_output_0: 3df571d5
/model.13/Split_output_1: 3c7308e5
/model.13/m.0/cv1/conv/Conv_output_0: 3d280c66
/model.13/m.0/cv1/act/Sigmoid_output_0: 3bfda111
/model.13/m.0/cv1/act/Mul_output_0: 3c87b8d9
/model.13/m.0/cv2/conv/Conv_output_0: 3d6f38e1
/model.13/m.0/cv2/act/Sigmoid_output_0: 3c00da25
/model.13/m.0/cv2/act/Mul_output_0: 3cc17b08
/model.13/m.0/Add_output_0: 3d304ec6
/model.13/Concat_output_0: 3c9a27a1
/model.13/cv2/conv/Conv_output_0: 3d2f1920
/model.13/cv2/act/Sigmoid_output_0: 3c02547e
/model.13/cv2/act/Mul_output_0: 3c31e220
/model.14/Resize_output_0: 3c31e220
/model.15/Concat_output_0: 3ca72d37
/model.16/cv1/conv/Conv_output_0: 3d5021b5
/model.16/cv1/act/Sigmoid_output_0: 3bf5db5a
/model.16/cv1/act/Mul_output_0: 3c72511a
/model.23/Reshape_2_output_0: 3dd67fa3
/model.23/Concat_2_output_0: 3dd67fa3
/model.23/Unsqueeze_12_output_0: 3fb4f522
/model.23/Slice_output_0: 3db86deb
/model.23/Range_3_output_0: 3f337204
/model.23/cv3.2/cv3.2.2/Conv_output_0: 3dcffbdc
/model.16/Split_output_0: 3c8fdcba
/model.23/cv3.2/cv3.2.1/cv3.2.1.1/act/Mul_output_0: 3e147b69
/model.23/cv3.2/cv3.2.1/cv3.2.1.1/act/Sigmoid_output_0: 3c021425
/model.23/cv3.2/cv3.2.1/cv3.2.1.1/conv/Conv_output_0: 3e13c8c2
/model.16/Split_output_1: 3c3109c8
/model.16/m.0/cv1/conv/Conv_output_0: 3d1cd4e3
/model.16/m.0/cv1/act/Sigmoid_output_0: 3bfc573d
/model.16/m.0/cv1/act/Mul_output_0: 3cd29119
/model.16/m.0/cv2/conv/Conv_output_0: 3d55a2ab
/model.16/m.0/cv2/act/Sigmoid_output_0: 3c009970
/model.16/m.0/cv2/act/Mul_output_0: 3cd46f64
/model.16/m.0/Add_output_0: 3d190cb4
/model.16/Concat_output_0: 3cb16487
/model.16/cv2/conv/Conv_output_0: 3d40bda2
/model.16/cv2/act/Sigmoid_output_0: 3c0231b4
/model.16/cv2/act/Mul_output_0: 3c881876
/model.17/conv/Conv_output_0: 3d72040b
/model.23/cv2.0/cv2.0.0/conv/Conv_output_0: 3d9a24ec
/model.23/cv3.0/cv3.0.0/cv3.0.0.0/conv/Conv_output_0: 3d03f632
/model.17/act/Sigmoid_output_0: 3c00daa5
/model.23/cv2.0/cv2.0.0/act/Sigmoid_output_0: 3c00c5ca
/model.23/cv3.0/cv3.0.0/cv3.0.0.0/act/Sigmoid_output_0: 3c01040f
/model.17/act/Mul_output_0: 3c9a7a6d
/model.23/cv2.0/cv2.0.0/act/Mul_output_0: 3cb08ac3
/model.23/cv3.0/cv3.0.0/cv3.0.0.0/act/Mul_output_0: 3ceb5628
/model.18/Concat_output_0: 3c80bfbf
/model.23/cv2.0/cv2.0.1/conv/Conv_output_0: 3e54e76e
/model.23/cv3.0/cv3.0.0/cv3.0.0.1/conv/Conv_output_0: 3d4a7b84
/model.19/cv1/conv/Conv_output_0: 3d4c8e6b
/model.23/cv2.0/cv2.0.1/act/Sigmoid_output_0: 3c010a14
/model.23/cv3.0/cv3.0.0/cv3.0.0.1/act/Sigmoid_output_0: 3c007087
/model.19/cv1/act/Sigmoid_output_0: 3c00e16d
/model.23/cv2.0/cv2.0.1/act/Mul_output_0: 3e139eb5
/model.23/cv3.0/cv3.0.0/cv3.0.0.1/act/Mul_output_0: 3cd2b63a
/model.19/cv1/act/Mul_output_0: 3ca5a1d6
/model.23/cv2.0/cv2.0.2/Conv_output_0: 3df464e1
/model.23/cv3.0/cv3.0.1/cv3.0.1.0/conv/Conv_output_0: 3d2a70f1
/model.23/cv3.2/cv3.2.1/cv3.2.1.0/conv/Conv_output_0: 3d5e35df
/model.23/cv2.1/cv2.1.1/act/Sigmoid_output_0: 3c010a14
/model.23/Sub_1_output_0: 3e327df9
/model.23/cv2.2/cv2.2.2/Conv_output_0: 3ddbeb18
/model.23/cv3.2/cv3.2.1/cv3.2.1.0/act/Mul_output_0: 3ce85111
/model.23/Split_1_output_0: 3df464e1
/model.19/Split_output_0: 3cc11147
/model.23/cv3.2/cv3.2.0/cv3.2.0.1/act/Mul_output_0: 3d251020
/model.23/cv2.2/cv2.2.1/act/Mul_output_0: 3e143e14
/model.23/cv3.2/cv3.2.0/cv3.2.0.1/act/Sigmoid_output_0: 3c08f730
/model.19/Split_output_1: 3c408647
/model.23/cv3.0/cv3.0.1/cv3.0.1.0/act/Sigmoid_output_0: 3c004ffb
/model.19/m.0/cv1/conv/Conv_output_0: 3d2bd793
/model.23/cv3.0/cv3.0.1/cv3.0.1.0/act/Mul_output_0: 3ceae595
/model.19/m.0/cv1/act/Sigmoid_output_0: 3bfc2433
/model.23/cv3.0/cv3.0.1/cv3.0.1.1/conv/Conv_output_0: 3df1d006
/model.19/m.0/cv1/act/Mul_output_0: 3c8ffc48
/model.23/cv3.0/cv3.0.1/cv3.0.1.1/act/Sigmoid_output_0: 3c010a14
/model.19/m.0/cv2/conv/Conv_output_0: 3db47328
/model.23/cv3.0/cv3.0.1/cv3.0.1.1/act/Mul_output_0: 3d9185ed
/model.19/m.0/cv2/act/Sigmoid_output_0: 3c00bca3
/model.23/cv3.0/cv3.0.2/Conv_output_0: 3df0e44a
/model.19/m.0/cv2/act/Mul_output_0: 3ce6ebc1
/model.23/Concat_output_0: 3df571d5
/model.19/m.0/Add_output_0: 3d648908
/model.23/cv2.2/cv2.2.1/conv/Conv_output_0: 3e347ecd
/model.23/cv2.2/cv2.2.0/act/Mul_output_0: 3d6caf69
/model.19/Concat_output_0: 3cd317d9
/model.23/cv3.2/cv3.2.0/cv3.2.0.0/act/Sigmoid_output_0: 3c05cdd4
/model.23/Sub_output_0: 3fb46d8c
/model.22/cv2/act/Sigmoid_output_0: 3c09a32c
/model.19/cv2/conv/Conv_output_0: 3d8ba84c
/model.23/cv2.2/cv2.2.0/act/Sigmoid_output_0: 3c0213bd
/model.23/Reshape_12_output_0: 3f347418
/model.23/Concat_20_output_0: 3eb37204
/model.22/cv2/conv/Conv_output_0: 3dbd075d
/model.19/cv2/act/Sigmoid_output_0: 3c04fc89
/model.23/cv2.2/cv2.2.1/act/Sigmoid_output_0: 3c010a14
/model.23/cv3.2/cv3.2.0/cv3.2.0.1/conv/Conv_output_0: 3d81ea0d
/model.23/cv2.2/cv2.2.0/conv/Conv_output_0: 3dd909ca
/model.23/Constant_14_output_0_output: 0
/model.23/Constant_15_output_0_output: 3c010a14
/model.23/cv2.1/cv2.1.1/act/Mul_output_0: 3e14f5c9
/model.23/cv3.1/cv3.1.0/cv3.1.0.1/conv/Conv_output_0: 3d79121b
/model.22/m.0/m/m.1/Add_output_0: 3dd77292
/model.23/Slice_1_output_0: 3da38636
/model.23/Concat_15_output_0: 3f347418
ONNXTRT_Broadcast_234_output: 3b810a14
/model.22/m.0/m/m.1/cv2/act/Mul_output_0: 3d3e27c5
/model.23/Range_output_0: 3fb47418
ONNXTRT_ShapeShuffle_146_output: 3c010a14
/model.22/m.0/cv3/conv/Conv_output_0: 3dbdceae
/model.22/m.0/Concat_output_0: 3d8d87ee
output0: 4134df34
ONNXTRT_Broadcast_309_output: 3b810a14
/model.23/cv3.1/cv3.1.1/cv3.1.1.0/act/Mul_output_0: 3d114ec6
/model.23/Concat_1_output_0: 3dd8db59
/model.23/cv3.2/cv3.2.0/cv3.2.0.0/conv/Conv_output_0: 3d819343
/model.23/Range_1_output_0: 3fb47418
ONNXTRT_ShapeShuffle_156_output: 3c010a14
/model.22/Concat_output_0: 3cd15e0a
/model.19/cv2/act/Mul_output_0: 3cd3bb99
/model.23/Reshape_output_0: 3df571d5
/model.23/Constant_16_output_0_output: 3b810a14
ONNXTRT_Broadcast_159_output: 3b810a14
/model.23/Reshape_4_output_0: 3fb4f522
ONNXTRT_Broadcast_161_output: 3b810a14
/model.23/Reshape_3_output_0: 3fb4f522
/model.22/cv2/act/Mul_output_0: 3d14209b
/model.22/m.0/cv3/act/Mul_output_0: 3d26add9
/model.20/conv/Conv_output_0: 3d6dd146
/model.23/cv2.1/cv2.1.0/conv/Conv_output_0: 3d99e96c
/model.23/cv3.1/cv3.1.0/cv3.1.0.0/conv/Conv_output_0: 3d7cf194
(Unnamed Layer* 383) [Constant]_output: 0
ONNXTRT_ShapeShuffle_164_output: 0
/model.23/ConstantOfShape_output_0: 0
/model.22/m.0/m/m.1/cv2/act/Sigmoid_output_0: 3c094137
/model.23/cv3.1/cv3.1.0/cv3.1.0.1/act/Sigmoid_output_0: 3c00e6dc
/model.23/Mul_5_output_0: 4134df34
/model.23/Range_2_output_0: 3f337204
/model.23/Reshape_5_output_0: 3fb4f522
/model.23/Reshape_6_output_0: 3fb4f522
/model.20/act/Sigmoid_output_0: 3c0ab5c5
/model.23/cv2.1/cv2.1.0/act/Sigmoid_output_0: 3c00f6e3
/model.23/cv3.1/cv3.1.0/cv3.1.0.0/act/Sigmoid_output_0: 3c01097d
/model.23/Squeeze_output_0_output: 3d810a14
ONNXTRT_Broadcast_169_output: 3d810a14
/model.23/Add_2_output_0: 3d810a14
/model.23/cv2.1/cv2.1.2/Conv_output_0: 3df74966
/model.20/act/Mul_output_0: 3c728568
/model.23/cv2.1/cv2.1.0/act/Mul_output_0: 3d257aa5
/model.23/cv3.1/cv3.1.0/cv3.1.0.0/act/Mul_output_0: 3d8f87e2
ONNXTRT_ShapeShuffle_232_output: 3c010a14
/model.23/Concat_10_output_0: 3fb4f522
/model.23/Expand_3_output_0: 3f347418
/model.23/Reshape_10_output_0: 3f347418
/model.23/Reshape_9_output_0: 3f347418
/model.23/ConstantOfShape_1_output_0: 0
/model.23/Expand_2_output_0: 3f347418
/model.23/Unsqueeze_6_output_0: 3f347418
/model.22/cv1/act/Mul_output_0: 3ca48a0f
ONNXTRT_ShapeShuffle_222_output: 3c010a14
/model.23/Expand_output_0: 3fb4f522
